#ifdef __has_attribute
#define HAVE_ATTRIBUTE(x) __has_attribute(x)
#else
#define HAVE_ATTRIBUTE(x) 0
#endif
#if HAVE_ATTRIBUTE(aligned) || (defined(__GNUC__) && !defined(__clang__))
#define DATA_ALIGN_ATTRIBUTE __attribute__((aligned(4)))
#else
#define DATA_ALIGN_ATTRIBUTE
#endif

/* Modelo tflite sin oprimización -> Funciona */
const unsigned char mnist_model[] DATA_ALIGN_ATTRIBUTE = {0x20, 0x00, 0x00, 0x00, 0x54, 0x46, 0x4c, 0x33, 0x00, 0x00, 0x00, 0x00, 0x00, 0x00, 0x12, 0x00, 0x1c, 0x00, 0x04, 0x00, 0x08, 0x00, 0x0c, 0x00, 0x10, 0x00, 0x14, 0x00, 0x00, 0x00, 0x18, 0x00, 0x12, 0x00, 0x00, 0x00, 0x03, 0x00, 0x00, 0x00, 0xfc, 0x1a, 0x00, 0x00, 0x30, 0x15, 0x00, 0x00, 0x18, 0x15, 0x00, 0x00, 0x34, 0x00, 0x00, 0x00, 0x04, 0x00, 0x00, 0x00, 0x01, 0x00, 0x00, 0x00, 0x04, 0x00, 0x00, 0x00, 0xdc, 0xe8, 0xff, 0xff, 0x08, 0x00, 0x00, 0x00, 0x0d, 0x00, 0x00, 0x00, 0x13, 0x00, 0x00, 0x00, 0x6d, 0x69, 0x6e, 0x5f, 0x72, 0x75, 0x6e, 0x74, 0x69, 0x6d, 0x65, 0x5f, 0x76, 0x65, 0x72, 0x73, 0x69, 0x6f, 0x6e, 0x00, 0x0e, 0x00, 0x00, 0x00, 0xd0, 0x14, 0x00, 0x00, 0xbc, 0x14, 0x00, 0x00, 0xb0, 0x13, 0x00, 0x00, 0xa4, 0x13, 0x00, 0x00, 0x90, 0x13, 0x00, 0x00, 0x7c, 0x13, 0x00, 0x00, 0x68, 0x13, 0x00, 0x00, 0x2c, 0x13, 0x00, 0x00, 0xf8, 0x12, 0x00, 0x00, 0xec, 0x12, 0x00, 0x00, 0x10, 0x03, 0x00, 0x00, 0x7c, 0x00, 0x00, 0x00, 0x28, 0x00, 0x00, 0x00, 0x04, 0x00, 0x00, 0x00, 0xee, 0xea, 0xff, 0xff, 0x04, 0x00, 0x00, 0x00, 0x05, 0x00, 0x00, 0x00, 0x31, 0x2e, 0x35, 0x2e, 0x30, 0x00, 0x00, 0x00, 0x00, 0x00, 0x00, 0x00, 0x00, 0x00, 0x00, 0x00, 0x00, 0x00, 0x00, 0x00, 0x0e, 0xeb, 0xff, 0xff, 0x04, 0x00, 0x00, 0x00, 0x40, 0x00, 0x00, 0x00, 0x82, 0x54, 0x28, 0x3d, 0xa6, 0x2a, 0x8e, 0x3d, 0x00, 0x00, 0x00, 0x00, 0xea, 0xe9, 0xa0, 0x3c, 0x00, 0x00, 0x00, 0x00, 0x53, 0xe8, 0x5f, 0xba, 0xde, 0x12, 0x1d, 0x3e, 0x19, 0x50, 0x90, 0x3d, 0xf5, 0x07, 0x26, 0x3e, 0x1c, 0x00, 0x07, 0x3e, 0x50, 0xd1, 0xbb, 0x3d, 0xc7, 0xab, 0x42, 0x3d, 0x9a, 0xad, 0x15, 0xbd, 0xd3, 0xa9, 0x04, 0x3d, 0xe2, 0xc0, 0xb9, 0xbc, 0x25, 0xd5, 0x9f, 0xbd, 0x00, 0x00, 0x00, 0x00, 0x5e, 0xeb, 0xff, 0xff, 0x04, 0x00, 0x00, 0x00, 0x80, 0x02, 0x00, 0x00, 0xbf, 0x5c, 0x79, 0x3e, 0x37, 0x51, 0x1b, 0x3f, 0xa2, 0x60, 0x87, 0xbe, 0x73, 0x94, 0x58, 0xbe, 0xac, 0xbe, 0xee, 0x3e, 0x00, 0x0b, 0xf9, 0xbe, 0x05, 0xcf, 0xb0, 0x3e, 0x8a, 0x20, 0x7c, 0xbf, 0x4b, 0x6d, 0xc9, 0xbf, 0x4d, 0x68, 0x9f, 0x3e, 0x37, 0x62, 0x51, 0xbf, 0x3b, 0x47, 0x73, 0xbe, 0x9c, 0x8a, 0x8e, 0xbd, 0x06, 0xcd, 0x03, 0x3f, 0x0e, 0xfa, 0x51, 0x3f, 0xcb, 0x61, 0x07, 0xbf, 0x59, 0x8e, 0x5c, 0xbf, 0x4c, 0x87, 0x3d, 0xbf, 0x78, 0xa0, 0xc5, 0xbe, 0x21, 0x22, 0x47, 0xbf, 0x64, 0xcc, 0xfb, 0xbd, 0x1e, 0x8d, 0xc9, 0x3e, 0xab, 0x2a, 0x66, 0x3f, 0x46, 0xf6, 0xaa, 0x3e, 0xa2, 0x6a, 0x5a, 0x3f, 0xf2, 0xb8, 0x86, 0x3f, 0xa1, 0xf4, 0xe1, 0x3d, 0xaf, 0xbe, 0x2f, 0x3b, 0x40, 0xda, 0x72, 0xbe, 0x77, 0x5f, 0x80, 0xbf, 0x02, 0x0f, 0x0e, 0xbf, 0xbe, 0xb8, 0x86, 0xbf, 0xdb, 0x6e, 0xf4, 0x3c, 0x1d, 0xcb, 0x75, 0xbf, 0xc4, 0xcb, 0x6f, 0x3e, 0x52, 0xfc, 0x44, 0xbf, 0x20, 0xfc, 0xa0, 0x3e, 0x2a, 0x0f, 0x8f, 0x3f, 0xf1, 0x59, 0x10, 0x3f, 0x82, 0x34, 0x7a, 0xbf, 0x69, 0x4b, 0x74, 0xbf, 0x31, 0x10, 0x06, 0xbf, 0x1b, 0x52, 0x56, 0x3f, 0xe6, 0x9b, 0x8f, 0xbe, 0x16, 0x21, 0x55, 0xbd, 0xfc, 0x9c, 0xd9, 0x3e, 0x1e, 0xc0, 0xbd, 0x3e, 0xea, 0xb1, 0x60, 0xbf, 0x4c, 0x40, 0xff, 0x3e, 0xe6, 0x17, 0x39, 0xbf, 0x56, 0xe4, 0xe9, 0x3e, 0x57, 0x22, 0x33, 0xbf, 0x4c, 0xee, 0x85, 0x3e, 0xe6, 0xcb, 0xf8, 0xbe, 0x2f, 0xb8, 0xf1, 0xbe, 0x6a, 0x72, 0x4a, 0xbf, 0xb6, 0xcd, 0x34, 0x3e, 0x6f, 0x24, 0xc5, 0xbf, 0x0a, 0x3f, 0x8b, 0x3e, 0xcd, 0xb4, 0x65, 0x3e, 0xe1, 0xc3, 0xbc, 0x3e, 0x5c, 0x42, 0x95, 0xbf, 0x1a, 0x4f, 0x90, 0x3e, 0x17, 0x46, 0x33, 0x3f, 0x8f, 0xa8, 0x77, 0xbf, 0xcd, 0x1d, 0x4c, 0x3f, 0xa3, 0xae, 0x79, 0xbe, 0x17, 0x67, 0xaa, 0x3e, 0x7c, 0xdf, 0x67, 0x3e, 0xe5, 0x27, 0x25, 0x3e, 0x2c, 0xdc, 0x2b, 0x3f, 0x55, 0xd2, 0x3f, 0xbd, 0xe1, 0xde, 0x6a, 0xbe, 0xde, 0x10, 0x4b, 0x3f, 0xfd, 0x2e, 0x7b, 0x3d, 0x39, 0x28, 0x88, 0xbf, 0x52, 0x21, 0xa4, 0x3d, 0xae, 0xaa, 0x73, 0x3d, 0xe2, 0x71, 0xac, 0xbf, 0x0d, 0xcb, 0x76, 0x3f, 0xac, 0xe5, 0x83, 0x3f, 0x84, 0x24, 0x6f, 0xbe, 0x8c, 0x72, 0x05, 0x3e, 0x01, 0xa6, 0x02, 0x3f, 0x4a, 0x88, 0xb1, 0xbe, 0x12, 0x27, 0x8e, 0xbf, 0x54, 0xd2, 0x7c, 0xbe, 0x7b, 0x87, 0xd9, 0xbf, 0x08, 0x58, 0xc5, 0xbe, 0x98, 0xb9, 0xf9, 0xbe, 0xb7, 0x3c, 0x70, 0xbf, 0x6d, 0xcb, 0x9c, 0x3c, 0xe0, 0xc5, 0x6b, 0x3e, 0x84, 0x88, 0x01, 0x3f, 0xc1, 0x17, 0xae, 0xbf, 0xe8, 0x84, 0x42, 0x3e, 0xa0, 0xe1, 0x8c, 0x3d, 0xe5, 0x92, 0x53, 0xbd, 0x98, 0x26, 0xa4, 0x3d, 0x27, 0x60, 0x62, 0x3f, 0x30, 0xaf, 0x60, 0x3e, 0xb7, 0x5e, 0x8f, 0x3e, 0x54, 0xc5, 0x03, 0x3f, 0xac, 0x71, 0xba, 0xbf, 0xa7, 0x48, 0x6a, 0x3e, 0xaf, 0x94, 0x8e, 0xbd, 0x39, 0x81, 0xc3, 0xbf, 0x89, 0x2d, 0x3c, 0xbf, 0xf9, 0x2b, 0xa1, 0x3e, 0x0a, 0x50, 0x14, 0xbf, 0x51, 0xdd, 0xdd, 0x3e, 0xc8, 0x76, 0x6b, 0x3d, 0x6f, 0x7b, 0x82, 0x3e, 0x36, 0xd9, 0x43, 0x3f, 0xfa, 0xc6, 0xcd, 0x3e, 0xe7, 0x58, 0xac, 0xbe, 0x93, 0x7f, 0xe8, 0xbe, 0x3d, 0xbf, 0x63, 0xbf, 0x5e, 0xd6, 0x96, 0xbf, 0x91, 0x75, 0x72, 0x3f, 0x62, 0xc8, 0x26, 0xbd, 0xb0, 0x4a, 0x11, 0xbf, 0x96, 0xf7, 0x0a, 0x3f, 0xee, 0x8d, 0x29, 0xbf, 0xe2, 0xcf, 0x13, 0x3e, 0xea, 0x1c, 0x71, 0x3e, 0x1c, 0x58, 0xc5, 0xbe, 0xff, 0x5f, 0x17, 0xbf, 0x66, 0xf9, 0xab, 0xbe, 0x90, 0x4a, 0x2b, 0xbf, 0xe4, 0x97, 0x1d, 0x3e, 0x7a, 0xeb, 0xbe, 0x3e, 0xb6, 0x2a, 0x87, 0xbe, 0x83, 0x8d, 0x8f, 0x3e, 0xda, 0x6a, 0x8c, 0xbf, 0xba, 0x6b, 0x61, 0x3e, 0x2c, 0x7b, 0xfb, 0xbd, 0x33, 0xcd, 0x9a, 0x3e, 0x6f, 0x70, 0x8f, 0x3d, 0x3f, 0x07, 0x14, 0x3e, 0x7e, 0xc1, 0xa3, 0x3e, 0x8e, 0xbe, 0x8a, 0xbe, 0xa3, 0x4c, 0x49, 0x3d, 0xb3, 0x07, 0xa1, 0xbd, 0x8a, 0x1c, 0x94, 0x3e, 0x66, 0xae, 0x0d, 0xbf, 0x50, 0x09, 0xd1, 0xbe, 0xdc, 0x11, 0xbc, 0xbf, 0x03, 0xf7, 0xd8, 0xbe, 0xc5, 0x25, 0x24, 0xbf, 0xee, 0x3e, 0x66, 0xbf, 0xa5, 0x93, 0x14, 0x3f, 0xfe, 0x58, 0x26, 0xbd, 0xaf, 0x94, 0x25, 0x3d, 0x26, 0x31, 0x7a, 0xbf, 0x91, 0x02, 0x43, 0x3e, 0x44, 0x9b, 0xc0, 0xbe, 0xc4, 0x5c, 0x77, 0x3f, 0x54, 0x17, 0x8c, 0xbe, 0x92, 0x89, 0x3b, 0x3f, 0x00, 0x00, 0x00, 0x00, 0xee, 0xed, 0xff, 0xff, 0x04, 0x00, 0x00, 0x00, 0xc0, 0x0f, 0x00, 0x00, 0x6b, 0x58, 0x74, 0xbe, 0x26, 0x5c, 0xf2, 0x3e, 0xf9, 0xb5, 0x68, 0x3e, 0x63, 0xbf, 0x7d, 0x3f, 0x90, 0xee, 0x01, 0x3f, 0x5e, 0xc0, 0x6c, 0x3f, 0xc2, 0x7a, 0x59, 0xbd, 0x16, 0x37, 0x43, 0xbf, 0x10, 0xde, 0xcd, 0x3e, 0x41, 0x13, 0x28, 0x3e, 0xa9, 0x49, 0x42, 0x3f, 0xba, 0x50, 0xcb, 0xbe, 0x97, 0x97, 0x72, 0x3f, 0x76, 0x55, 0xba, 0xbe, 0xa4, 0xc4, 0xc4, 0x3e, 0x83, 0x51, 0xe7, 0x3e, 0x1e, 0x56, 0x63, 0x3d, 0xc3, 0xf0, 0x8c, 0x3f, 0x31, 0x83, 0xf8, 0x3e, 0xb2, 0x1f, 0x30, 0x3f, 0xd0, 0x2f, 0x45, 0x3e, 0x73, 0x28, 0xa9, 0x3e, 0x8b, 0xe8, 0xa7, 0xbd, 0x77, 0x30, 0xf9, 0xbd, 0xdf, 0xcc, 0x0c, 0x3f, 0xd0, 0xa4, 0xce, 0xbc, 0xc6, 0xa2, 0xba, 0xbd, 0x53, 0xe4, 0x44, 0x3c, 0x9c, 0x6f, 0xd3, 0x3e, 0x15, 0xe7, 0x01, 0xbd, 0xc4, 0x2b, 0xbc, 0x3e, 0xac, 0x5f, 0x05, 0x3d, 0x13, 0xb0, 0x84, 0xbd, 0x97, 0xaa, 0x1c, 0x3f, 0x1a, 0x69, 0x4f, 0xbe, 0xf7, 0x2d, 0x28, 0x3f, 0x00, 0xe6, 0x4e, 0x3d, 0x86, 0x82, 0xc3, 0xbe, 0x9d, 0x29, 0xba, 0xbe, 0x9f, 0x08, 0xff, 0xbe, 0xba, 0x38, 0x82, 0x3e, 0xde, 0xd3, 0x65, 0x3e, 0x78, 0xef, 0x2c, 0x3e, 0x84, 0x1d, 0x93, 0xbd, 0xbe, 0x6f, 0xba, 0x3e, 0x37, 0x2b, 0x71, 0x3e, 0x15, 0x34, 0x2e, 0xbf, 0x8a, 0x45, 0x85, 0x3f, 0x8c, 0xcd, 0x13, 0x3f, 0x79, 0x12, 0x18, 0xbd, 0xac, 0xf0, 0x88, 0xbe, 0x95, 0xce, 0x49, 0xbe, 0xda, 0x8c, 0x02, 0x3f, 0x06, 0x8f, 0xb3, 0xbe, 0x0b, 0xe0, 0x1e, 0x3f, 0x3d, 0x53, 0x14, 0x3e, 0x0f, 0x3c, 0x99, 0x3e, 0xbd, 0xe4, 0x65, 0xbe, 0x9c, 0xef, 0x81, 0x3d, 0x8f, 0x05, 0x31, 0x3f, 0x6d, 0x66, 0x8e, 0x3e, 0x7d, 0xe6, 0xc7, 0x3e, 0x4a, 0x77, 0xbe, 0x3e, 0xb0, 0x51, 0xde, 0x3e, 0x5c, 0x37, 0xff, 0xbd, 0xe8, 0xe5, 0x71, 0x3e, 0x01, 0xde, 0x0f, 0x3f, 0x24, 0xe1, 0x0f, 0xbf, 0xed, 0x73, 0xd7, 0xbb, 0x7a, 0xe6, 0x2b, 0xbe, 0x84, 0xdf, 0xc7, 0xbe, 0x91, 0xbf, 0xab, 0xbe, 0x4f, 0x62, 0x1e, 0x3e, 0xde, 0x57, 0xdb, 0x3e, 0xcc, 0x94, 0xb8, 0x3d, 0xe7, 0xe2, 0xe1, 0xbd, 0x4a, 0xb0, 0xf2, 0x3c, 0xe8, 0x29, 0x7a, 0x3f, 0x0a, 0x0a, 0x53, 0x39, 0x2f, 0xf3, 0x6b, 0xbe, 0xa6, 0xe7, 0x88, 0xbe, 0xfe, 0x1b, 0x63, 0xbe, 0x79, 0x33, 0x2b, 0x3e, 0x9a, 0x31, 0xc2, 0x3e, 0x73, 0x83, 0x85, 0xbd, 0x40, 0x76, 0x92, 0x3e, 0xb0, 0xe2, 0xf5, 0x3d, 0xcc, 0x9c, 0x8b, 0x3d, 0x79, 0x79, 0xe0, 0x3e, 0x7c, 0x63, 0x52, 0xbe, 0x7a, 0xc4, 0xb6, 0x3e, 0x27, 0xb1, 0x03, 0xbc, 0xda, 0xdb, 0x2a, 0xbe, 0xc9, 0xab, 0x68, 0x3e, 0x6f, 0x19, 0x87, 0xbe, 0xf4, 0x76, 0x0e, 0x3f, 0x87, 0x5a, 0x88, 0xbe, 0x68, 0xb5, 0xce, 0x3d, 0xbc, 0xa3, 0x9f, 0x3e, 0xff, 0x9f, 0x82, 0x3e, 0x7c, 0x4c, 0x33, 0xbe, 0xbf, 0x04, 0xd3, 0x3e, 0x40, 0x4c, 0x58, 0xbb, 0x65, 0xf9, 0xd3, 0x3e, 0x97, 0x8d, 0x1f, 0x3f, 0x9f, 0x8d, 0x2d, 0xbe, 0x73, 0x8e, 0xd1, 0x3e, 0xaf, 0x1e, 0x83, 0x3d, 0xa2, 0x56, 0x83, 0x3e, 0x25, 0x0e, 0x02, 0x3f, 0xab, 0xa4, 0xa2, 0x3e, 0x40, 0x18, 0xea, 0x3c, 0x81, 0x60, 0x97, 0xbe, 0xb0, 0x88, 0x70, 0xbe, 0xbe, 0x91, 0xf3, 0xbe, 0xc3, 0x7e, 0x15, 0x3f, 0x11, 0x77, 0x8d, 0x3e, 0xb3, 0x1a, 0x62, 0xbe, 0xa8, 0x4f, 0x97, 0x3d, 0xfa, 0x8b, 0x8d, 0xbf, 0xd0, 0x70, 0xce, 0xbd, 0x54, 0x79, 0xb4, 0x3e, 0x9b, 0x1e, 0x55, 0x3f, 0x08, 0xa9, 0xd4, 0x3e, 0x2b, 0xf2, 0x8d, 0x3f, 0xa7, 0x8a, 0xb0, 0xbe, 0x00, 0x9c, 0x5f, 0xbd, 0x5e, 0xcb, 0x52, 0xbe, 0x34, 0x56, 0x3a, 0x3e, 0xc2, 0xa8, 0x67, 0x3e, 0x10, 0x35, 0xce, 0x3d, 0x80, 0xfd, 0xa5, 0x3c, 0xf0, 0xe0, 0xfe, 0x3d, 0xf0, 0x34, 0x6b, 0xbe, 0xc0, 0xc7, 0xb6, 0xbc, 0xf0, 0x85, 0xa2, 0xbc, 0x1a, 0x1c, 0x16, 0x3e, 0x74, 0xa9, 0x60, 0xbd, 0x68, 0x4e, 0x7d, 0x3d, 0xd0, 0x3d, 0x05, 0xbd, 0x32, 0xbf, 0xf1, 0xbd, 0xcc, 0x89, 0x48, 0xbe, 0x3c, 0x5c, 0x07, 0xbe, 0x20, 0x3f, 0x6f, 0x3d, 0x32, 0xcb, 0x98, 0xbd, 0xa4, 0xb3, 0xdb, 0xbd, 0x4e, 0x31, 0x78, 0x3e, 0x45, 0x61, 0x7f, 0xbe, 0xb8, 0xc9, 0x2e, 0xbe, 0xe0, 0xf6, 0x11, 0x3e, 0x1f, 0x65, 0x18, 0xbe, 0xdc, 0x4e, 0x41, 0xbd, 0xe4, 0xf8, 0x63, 0xbe, 0x28, 0x9d, 0xfc, 0x3d, 0x10, 0x20, 0x72, 0x3d, 0x1e, 0x14, 0x4e, 0xbe, 0x3c, 0xf8, 0x8c, 0xbe, 0x8c, 0x5c, 0x29, 0xbe, 0xe2, 0x2a, 0x89, 0xbd, 0x48, 0x48, 0x21, 0x3d, 0xa8, 0x63, 0xe3, 0x3d, 0x08, 0x87, 0x1e, 0xbe, 0x58, 0x9b, 0x1d, 0x3d, 0x0e, 0xa7, 0x3a, 0x3e, 0x3c, 0xf0, 0x91, 0x3d, 0x82, 0x54, 0x24, 0xbe, 0xd8, 0x4a, 0xec, 0x3d, 0xf8, 0x0a, 0x3a, 0x3e, 0xaa, 0x45, 0x3c, 0xbe, 0xbe, 0x26, 0x8a, 0xbe, 0x98, 0x61, 0x23, 0x3e, 0xde, 0x79, 0x82, 0xbe, 0x7c, 0x40, 0xab, 0x3d, 0x90, 0xd1, 0xd2, 0x3c, 0x64, 0x3b, 0x26, 0x3e, 0xe0, 0x7e, 0xbd, 0xbc, 0xe0, 0xa0, 0x07, 0x3c, 0xb2, 0xc0, 0x27, 0x3e, 0xec, 0xa3, 0x55, 0xbe, 0x3e, 0xfe, 0x2f, 0xbe, 0x90, 0xe7, 0xb5, 0xbc, 0xd5, 0xb0, 0x0c, 0xbe, 0xb8, 0x55, 0x2b, 0xbe, 0xf0, 0x37, 0xb8, 0xbc, 0x7a, 0x23, 0x75, 0x3e, 0x46, 0x8e, 0x34, 0x3e, 0xb4, 0x8c, 0x70, 0xbe, 0x03, 0x72, 0x71, 0xbe, 0xd9, 0x80, 0x8b, 0xbe, 0x02, 0xf8, 0x81, 0xbb, 0x56, 0x87, 0x56, 0x3e, 0x2a, 0x82, 0xf0, 0x3c, 0x3c, 0xa9, 0x8e, 0xbc, 0x34, 0x70, 0x0e, 0xbf, 0x42, 0xb5, 0x1e, 0xbf, 0xbd, 0xd5, 0x85, 0x3e, 0x89, 0xa3, 0x33, 0xbd, 0x7b, 0x4a, 0x47, 0xbe, 0xb1, 0xe9, 0x09, 0x3d, 0xd8, 0xb7, 0x76, 0x3f, 0x08, 0xd1, 0x0a, 0x3f, 0xc6, 0x45, 0x6e, 0x3e, 0xe0, 0xaf, 0x5c, 0xbe, 0xd5, 0xaf, 0x44, 0x3f, 0x2f, 0x99, 0x05, 0xbf, 0x12, 0xb5, 0x21, 0xbf, 0x3d, 0x91, 0x9e, 0x3f, 0x02, 0x45, 0x11, 0xbf, 0xa1, 0x58, 0xbc, 0x3f, 0x92, 0xaf, 0xaf, 0xbe, 0x0a, 0x54, 0xa1, 0x3d, 0x40, 0x14, 0x9a, 0x3e, 0xe0, 0xef, 0x3e, 0xbe, 0xb3, 0x6c, 0x1e, 0xbf, 0xfd, 0xc7, 0x1c, 0xbe, 0x8c, 0xe8, 0x12, 0x3d, 0xfd, 0xf8, 0x74, 0x3e, 0x12, 0x5e, 0xb0, 0xbe, 0x21, 0xe9, 0xca, 0x3e, 0xfa, 0x41, 0x32, 0x3e, 0x63, 0x07, 0xbf, 0xbe, 0xc4, 0x15, 0xcc, 0x3e, 0xa1, 0x52, 0x2a, 0xbe, 0x6c, 0xfd, 0x24, 0xbe, 0xdd, 0xdf, 0xae, 0x3f, 0x25, 0x43, 0x8a, 0x3e, 0x8f, 0x7f, 0x3c, 0xbf, 0x01, 0x01, 0xcf, 0x3e, 0xff, 0x89, 0xfe, 0xbe, 0x74, 0x3b, 0x88, 0x3f, 0x07, 0x62, 0x00, 0x3f, 0x13, 0x08, 0x97, 0x3e, 0xd8, 0x64, 0x46, 0x3e, 0x33, 0xc9, 0x17, 0x3f, 0x44, 0x2a, 0xd4, 0x3d, 0x66, 0x83, 0xee, 0x3e, 0xe1, 0x58, 0x53, 0xbf, 0xe9, 0x74, 0xd7, 0x3e, 0xc7, 0xd4, 0x2c, 0xbf, 0x1b, 0x84, 0x2c, 0x3c, 0xc5, 0x9e, 0x2a, 0x3f, 0x3b, 0xb7, 0xf3, 0x3d, 0x88, 0xe1, 0x45, 0x3f, 0xa5, 0x2e, 0x47, 0xbe, 0xa5, 0x30, 0xc8, 0xbe, 0x65, 0xa4, 0x8f, 0xbd, 0x5c, 0x1b, 0xfa, 0x3d, 0xe1, 0x86, 0x03, 0x3f, 0xfe, 0x9c, 0x1a, 0x3f, 0x5e, 0xd3, 0xd3, 0x3e, 0x4c, 0xda, 0xe1, 0xbc, 0xb2, 0x24, 0x19, 0xbe, 0x5c, 0xab, 0x98, 0x3d, 0xcf, 0xf2, 0x00, 0xbe, 0x1e, 0xbf, 0xc1, 0xbd, 0x54, 0x88, 0x4e, 0xbd, 0x91, 0x47, 0x87, 0x3e, 0x80, 0x44, 0xf2, 0xbc, 0x58, 0x48, 0xbb, 0xbd, 0xb8, 0xdc, 0xf9, 0xbd, 0xba, 0x5a, 0xc5, 0xbd, 0x7c, 0x2a, 0xeb, 0x3d, 0x76, 0x36, 0x1b, 0xbe, 0xd0, 0x1e, 0x41, 0xbe, 0x8a, 0x40, 0x44, 0xbe, 0x48, 0x32, 0x04, 0xbd, 0x4c, 0x97, 0x8e, 0xbd, 0x74, 0xc0, 0x37, 0xbd, 0x80, 0xb5, 0xdb, 0xbb, 0x72, 0xe2, 0x03, 0x3e, 0x80, 0x00, 0x2d, 0x3c, 0x7c, 0xbc, 0x8a, 0x3d, 0xb8, 0xa8, 0x21, 0x3e, 0x7f, 0x68, 0x18, 0xbe, 0xf8, 0x2d, 0x0f, 0x3d, 0xa8, 0x17, 0x16, 0x3d, 0x00, 0xca, 0xde, 0x3c, 0x24, 0xb9, 0x95, 0x3d, 0x40, 0x11, 0x1b, 0x3d, 0x4a, 0x6f, 0x7b, 0xbe, 0xa0, 0x8d, 0xf6, 0x3c, 0xcc, 0x08, 0x2c, 0xbe, 0x0a, 0x5a, 0xbc, 0xbd, 0x00, 0x65, 0x40, 0xbc, 0x84, 0x9d, 0xc5, 0x3d, 0xa0, 0x87, 0x86, 0xbe, 0x90, 0x03, 0x92, 0x3d, 0x2e, 0xac, 0x82, 0xbd, 0x9d, 0xa9, 0x6e, 0xbe, 0x3a, 0x10, 0xf1, 0xbd, 0x90, 0x86, 0xbe, 0x3d, 0x24, 0x7b, 0x09, 0xbd, 0x1c, 0xb6, 0x9b, 0x3d, 0xdb, 0xcf, 0x86, 0xbe, 0x18, 0x4e, 0x7a, 0xbe, 0xc0, 0x88, 0x1a, 0xbe, 0xa8, 0x81, 0x6f, 0xbe, 0xf8, 0xd5, 0x4e, 0xbd, 0xbc, 0x1e, 0x85, 0x3d, 0x72, 0x4d, 0xee, 0xbd, 0x9c, 0xf5, 0xd6, 0x3d, 0x9c, 0x70, 0x09, 0xbd, 0xf0, 0xd1, 0xe2, 0x3d, 0xc6, 0xb2, 0xc8, 0xbd, 0x16, 0x6b, 0x60, 0x3e, 0x38, 0xc6, 0x5c, 0x3e, 0x5a, 0xbe, 0x7f, 0xbe, 0xc4, 0xa4, 0x4b, 0x3e, 0x79, 0xab, 0x16, 0xbe, 0x40, 0x54, 0xd6, 0xbb, 0x90, 0x2c, 0x26, 0xbd, 0x98, 0x59, 0xe9, 0x3d, 0x40, 0xbf, 0x22, 0x3c, 0xa0, 0xee, 0x06, 0x3d, 0xde, 0x38, 0x2f, 0xbe, 0xf1, 0xdc, 0x6b, 0x3e, 0x87, 0x5c, 0x95, 0xbd, 0x87, 0xd4, 0x95, 0xbe, 0x81, 0x32, 0xc4, 0xbd, 0x6e, 0x28, 0x1a, 0x3f, 0x3e, 0x09, 0x2b, 0xbf, 0x6f, 0x57, 0x45, 0xbd, 0x72, 0xbf, 0x3e, 0x3f, 0x4d, 0xab, 0x3f, 0xbd, 0x0f, 0x49, 0x27, 0xbe, 0x04, 0x45, 0x83, 0xbe, 0x06, 0x88, 0x83, 0xbd, 0x5e, 0x26, 0x17, 0xbf, 0x8a, 0x00, 0x0d, 0x3d, 0x25, 0xd0, 0x26, 0xbe, 0xb0, 0xc1, 0xb1, 0xbd, 0xf0, 0x55, 0x3f, 0xbd, 0x68, 0xcc, 0x44, 0xbf, 0x11, 0x52, 0xe9, 0xbd, 0xbb, 0xb8, 0x3a, 0xbf, 0x92, 0x51, 0x7c, 0xbd, 0xff, 0x01, 0xbc, 0xbe, 0x89, 0xc5, 0x0d, 0xbe, 0xd0, 0x2b, 0x9e, 0xbe, 0xbe, 0x4a, 0x06, 0xbe, 0x1b, 0xb6, 0xe4, 0xbe, 0x54, 0xc8, 0xda, 0x39, 0x2d, 0x6b, 0xc5, 0x3e, 0xed, 0x32, 0xe3, 0xbd, 0x0c, 0x27, 0x8f, 0x3e, 0x6a, 0xc4, 0xb1, 0xbe, 0xc4, 0x2a, 0x77, 0x3c, 0x1b, 0xfc, 0xa9, 0x3e, 0x0d, 0x4a, 0xea, 0xbe, 0x29, 0x2e, 0xa2, 0x3d, 0x26, 0x7d, 0x00, 0xbf, 0xb5, 0x37, 0x9e, 0xbe, 0xe8, 0x81, 0xa9, 0x3d, 0x4f, 0x4b, 0x0f, 0x3f, 0xbc, 0x4e, 0xf5, 0x3e, 0x2f, 0xe7, 0x3e, 0xbc, 0x7e, 0x74, 0xe1, 0xbc, 0xc0, 0xe8, 0x91, 0x3e, 0xa4, 0xa2, 0xe2, 0x3d, 0x9a, 0x01, 0x40, 0xbe, 0x55, 0x55, 0x49, 0xbe, 0xf6, 0xc5, 0xe5, 0x3e, 0x13, 0x34, 0x82, 0xbf, 0x8a, 0x5d, 0x44, 0x3d, 0x09, 0x74, 0x16, 0xbf, 0x94, 0x03, 0x32, 0x3f, 0xbc, 0xe0, 0x0c, 0x3f, 0x5a, 0x28, 0x9c, 0xbe, 0xc8, 0xe2, 0xbf, 0x3e, 0xa5, 0x2f, 0xc5, 0xbe, 0xba, 0x98, 0xd1, 0x3e, 0xac, 0xb3, 0x6e, 0x3f, 0x4b, 0xbb, 0x0e, 0x3f, 0x32, 0xdd, 0x84, 0xbe, 0xdb, 0x28, 0x05, 0xbf, 0x9d, 0xd1, 0x56, 0xbe, 0x26, 0xc1, 0xe8, 0xbe, 0xa9, 0x56, 0x1a, 0x3f, 0xd7, 0xe8, 0x3f, 0x3f, 0x08, 0xff, 0x03, 0xbf, 0x09, 0x95, 0x29, 0xbe, 0xf3, 0x37, 0x6d, 0xbe, 0x7d, 0x99, 0x2b, 0x3f, 0xb4, 0xa8, 0x87, 0xbf, 0xa2, 0x2b, 0x94, 0xbe, 0x74, 0x00, 0xdc, 0x3d, 0xd4, 0x54, 0x94, 0x3e, 0x86, 0x16, 0x50, 0xbf, 0xf1, 0x28, 0x8d, 0x3e, 0xc6, 0x15, 0xfb, 0x3e, 0x7a, 0xb8, 0x34, 0xbf, 0xbe, 0xdc, 0xd9, 0x3d, 0xc9, 0x72, 0xa7, 0xbe, 0x30, 0x2f, 0xb6, 0xbe, 0x3c, 0x60, 0xab, 0x3d, 0xcf, 0x1f, 0x2d, 0xbf, 0x34, 0xed, 0xab, 0xbd, 0x1c, 0x09, 0xa0, 0xbe, 0xa3, 0x6d, 0x93, 0xbd, 0x3c, 0xde, 0x92, 0xbd, 0x76, 0x6e, 0xb2, 0x3e, 0xdd, 0x6f, 0x19, 0x3e, 0x82, 0x8b, 0x48, 0x3c, 0x18, 0xa4, 0x96, 0x3e, 0x1b, 0xa2, 0x7b, 0xbe, 0x54, 0x9e, 0x72, 0x3e, 0xa9, 0xbb, 0x9e, 0x3c, 0xa2, 0xc4, 0x3c, 0x3e, 0x1e, 0xbc, 0x05, 0x3e, 0x0e, 0x4d, 0x19, 0x3c, 0xcc, 0x00, 0xd7, 0x3e, 0xa0, 0xf0, 0x42, 0x3e, 0xeb, 0xb0, 0x26, 0xbe, 0xb9, 0x93, 0x1a, 0xbf, 0x81, 0x70, 0xfb, 0xbd, 0x48, 0x3f, 0x33, 0x3e, 0x8c, 0xb1, 0x54, 0x3c, 0xc5, 0x86, 0xf5, 0xbd, 0x7d, 0x50, 0x36, 0xbf, 0x03, 0xe3, 0x20, 0x3d, 0x2d, 0xaf, 0x23, 0x3e, 0x9f, 0xff, 0xe6, 0x3e, 0x58, 0xe6, 0x64, 0xbe, 0x92, 0x77, 0x94, 0xbe, 0xb2, 0x51, 0x4d, 0x3e, 0x59, 0xbf, 0x6c, 0x3c, 0x31, 0x62, 0x21, 0xbe, 0x02, 0x98, 0x14, 0xbe, 0x06, 0xf8, 0xd7, 0x3e, 0x4d, 0x3e, 0xf0, 0xbe, 0x56, 0x2c, 0x78, 0xbe, 0x90, 0x95, 0x8a, 0xbc, 0x0b, 0x70, 0x46, 0xbf, 0x56, 0xd4, 0xef, 0x3e, 0xbc, 0xe9, 0x1e, 0xbf, 0x20, 0x2a, 0x93, 0x3e, 0xae, 0xe3, 0x10, 0x3d, 0xe5, 0x44, 0xb6, 0xbe, 0xc3, 0x57, 0x12, 0x3e, 0xaa, 0xbf, 0xe0, 0x3e, 0x5b, 0xec, 0xc3, 0x3e, 0xf2, 0xb0, 0x6e, 0x3b, 0xd7, 0x2d, 0x54, 0x3e, 0x70, 0x0b, 0x11, 0x3e, 0x55, 0x44, 0xc0, 0x3e, 0xd3, 0x89, 0xb5, 0xbe, 0x63, 0xdf, 0x19, 0x3f, 0xd1, 0xa8, 0x28, 0x3e, 0xb1, 0x01, 0x01, 0x3e, 0x1f, 0xc2, 0xa0, 0x3a, 0x21, 0x8e, 0xbf, 0x3e, 0xf2, 0xd1, 0x0a, 0xbf, 0xb3, 0x88, 0x45, 0xbe, 0x4b, 0x54, 0xe9, 0x3e, 0xe7, 0x22, 0x19, 0xbe, 0x0a, 0xcf, 0xb0, 0xbe, 0xa0, 0xe1, 0xda, 0x3e, 0xc0, 0x7f, 0x16, 0x3e, 0xed, 0x74, 0x28, 0xbf, 0x4d, 0xef, 0x84, 0x3e, 0xab, 0xb1, 0x4a, 0xbf, 0x98, 0x66, 0x23, 0x3f, 0xd5, 0xb6, 0x91, 0x3e, 0xd5, 0x73, 0x3c, 0x3d, 0xba, 0x33, 0xa6, 0x3e, 0xfa, 0xb9, 0x1f, 0xbe, 0xc3, 0x27, 0x98, 0x3e, 0x21, 0xae, 0x71, 0xbd, 0x60, 0xe9, 0x15, 0x3e, 0xb6, 0x5c, 0x9c, 0x3d, 0x48, 0x3f, 0xed, 0x3b, 0x0f, 0xd1, 0x96, 0xbe, 0x7c, 0x4f, 0x11, 0x3e, 0xca, 0xb9, 0x42, 0x3e, 0x4b, 0x9d, 0xa8, 0xbd, 0x9a, 0x5c, 0xeb, 0x3e, 0x2a, 0xd9, 0x07, 0xbf, 0x56, 0xd0, 0x97, 0x3d, 0x83, 0x7b, 0x55, 0x3e, 0x9b, 0xa7, 0xc2, 0xbd, 0x34, 0x4e, 0x80, 0x3d, 0xd3, 0x94, 0xe8, 0x3d, 0x9c, 0x6a, 0x80, 0x3e, 0x94, 0x23, 0x72, 0xba, 0x07, 0xef, 0x75, 0xbe, 0xe4, 0x1f, 0x78, 0x3e, 0x93, 0x35, 0xae, 0x3d, 0xb9, 0x87, 0xd8, 0xbe, 0xd5, 0xb3, 0x08, 0x3e, 0x94, 0x02, 0x5a, 0xbe, 0x81, 0x85, 0x8a, 0x3d, 0xe0, 0xca, 0x80, 0xbe, 0x99, 0x70, 0xda, 0x3e, 0xd2, 0x8e, 0x13, 0x3f, 0xe3, 0xd9, 0x08, 0x3f, 0xbc, 0xd3, 0xcb, 0x3e, 0x71, 0xbd, 0x27, 0xbf, 0xfd, 0x35, 0xd2, 0x3e, 0x94, 0xeb, 0x38, 0xbe, 0x85, 0xba, 0x32, 0x3d, 0x53, 0xf2, 0x36, 0x3d, 0xa9, 0x0b, 0x83, 0xbd, 0x2b, 0x7f, 0x3b, 0x3e, 0x44, 0x45, 0x91, 0xbf, 0x28, 0x21, 0xe2, 0x3e, 0x1f, 0x93, 0xd6, 0x3d, 0xe0, 0xb7, 0x98, 0xbd, 0xc1, 0x4d, 0x36, 0xbf, 0xdb, 0x6f, 0x2b, 0xbe, 0x30, 0xb1, 0x80, 0x3e, 0x87, 0x83, 0xf1, 0xbd, 0x53, 0xa2, 0xa1, 0x3e, 0x83, 0xc4, 0x0a, 0x3f, 0xd1, 0xac, 0xa9, 0xbe, 0x18, 0x66, 0xd0, 0xbe, 0x58, 0x13, 0xaf, 0xbe, 0xaa, 0xb6, 0x03, 0xbf, 0x5c, 0x1d, 0x04, 0x3f, 0x03, 0x44, 0x56, 0xbf, 0x53, 0x5b, 0x1b, 0x3e, 0xfc, 0x7f, 0xc5, 0x3e, 0x12, 0xdc, 0x35, 0xbe, 0x83, 0x9f, 0x92, 0xbd, 0x83, 0xab, 0x36, 0xbe, 0xc7, 0x84, 0x49, 0xbe, 0x89, 0x7b, 0x31, 0xbc, 0xad, 0xa6, 0xc3, 0xbd, 0x2e, 0xc7, 0x2f, 0x3e, 0x25, 0x51, 0x2f, 0xbf, 0x31, 0xfd, 0x91, 0xbd, 0x7a, 0xe7, 0x0b, 0xbf, 0x8c, 0x00, 0xb5, 0x3d, 0x7e, 0x6e, 0x25, 0xbf, 0x6d, 0x79, 0x3b, 0x3f, 0xb3, 0x3e, 0xcd, 0xbe, 0xbc, 0x9e, 0x2f, 0xbe, 0x18, 0x0e, 0x98, 0x3e, 0x4d, 0x4a, 0xce, 0x3e, 0xfa, 0x70, 0xc7, 0x3e, 0x82, 0x7d, 0xae, 0x3e, 0x58, 0x0f, 0x17, 0x3f, 0xde, 0x9c, 0xb4, 0x3d, 0x43, 0xa4, 0x1d, 0xbf, 0xd2, 0x16, 0x90, 0x3e, 0x6c, 0x0c, 0x1b, 0xbf, 0x30, 0xc8, 0x22, 0x3e, 0xb7, 0xe8, 0x90, 0xbe, 0x29, 0xdf, 0xee, 0xbd, 0xbf, 0xe8, 0x76, 0x3d, 0xf7, 0x2e, 0x98, 0x3e, 0x7d, 0x69, 0xb1, 0xbe, 0x3b, 0xfe, 0xc8, 0x3d, 0x76, 0x6e, 0xc9, 0xbe, 0xbf, 0x7c, 0xa1, 0x3e, 0x61, 0x31, 0xe2, 0x3d, 0x36, 0x61, 0x1e, 0x3e, 0x5c, 0x3d, 0x6d, 0xbe, 0x42, 0xef, 0xb3, 0xbe, 0x43, 0x86, 0x99, 0x3f, 0xc9, 0x10, 0x35, 0x3d, 0x64, 0x4d, 0x0b, 0xbd, 0x78, 0x55, 0xce, 0x3e, 0x6c, 0x61, 0x3e, 0xbd, 0x4b, 0x61, 0x91, 0xbf, 0x3b, 0x03, 0x88, 0xbe, 0x96, 0x4e, 0xb9, 0x3d, 0x52, 0xc7, 0x0b, 0xbf, 0x49, 0x36, 0xdc, 0x3e, 0xca, 0x78, 0x37, 0x3e, 0x1f, 0x62, 0x83, 0x3e, 0x6e, 0x89, 0xc4, 0xbf, 0xc0, 0x21, 0x81, 0xbf, 0x23, 0xeb, 0x89, 0xbf, 0xfd, 0xb4, 0x94, 0x3e, 0xdc, 0x3f, 0x3d, 0x3f, 0x93, 0xd2, 0x08, 0xbe, 0x7f, 0xf5, 0xe7, 0xbe, 0xf5, 0xe6, 0x8c, 0xbe, 0xce, 0x20, 0xee, 0x3e, 0x3b, 0x1c, 0x4d, 0xbf, 0x9c, 0x40, 0xf5, 0x3e, 0xb1, 0x53, 0x40, 0x3e, 0x6d, 0xc1, 0x64, 0xbe, 0xc4, 0xd7, 0x21, 0x3e, 0xc6, 0x62, 0x32, 0xbf, 0x83, 0x18, 0x4a, 0xbe, 0x3f, 0x70, 0x58, 0xbf, 0x13, 0x63, 0xd7, 0x3e, 0x95, 0xbd, 0xc5, 0xbc, 0x0e, 0xec, 0x09, 0x3f, 0xe0, 0x4b, 0x45, 0x3e, 0xf7, 0x8e, 0x1d, 0xbe, 0xf4, 0x8b, 0x31, 0xbe, 0x5e, 0x2f, 0x38, 0x3e, 0x3e, 0xca, 0xc6, 0x3e, 0xcc, 0xbe, 0x24, 0x3e, 0x1b, 0x2d, 0x5b, 0x3d, 0x1b, 0xda, 0xf9, 0x3d, 0x27, 0xf3, 0x47, 0x3e, 0x9e, 0xef, 0x78, 0x3e, 0x7b, 0xc0, 0x9d, 0xbd, 0x68, 0x13, 0x90, 0xbd, 0xf2, 0xdd, 0x5e, 0xbf, 0xeb, 0x8a, 0x25, 0x3e, 0x1c, 0xed, 0x2a, 0x3f, 0xc3, 0xf1, 0x08, 0x3e, 0x45, 0xa8, 0xc3, 0x3e, 0xe2, 0x61, 0x82, 0xbe, 0xfb, 0xc7, 0xc7, 0xbc, 0x6b, 0xc0, 0xae, 0xbd, 0xbf, 0xe2, 0xee, 0x3e, 0x63, 0xc7, 0xa9, 0x3e, 0xd4, 0x8c, 0x32, 0x3e, 0x15, 0xd9, 0x3a, 0x3f, 0xb1, 0x5a, 0x27, 0xbf, 0x1e, 0x11, 0x27, 0xbf, 0x3c, 0xdb, 0x02, 0x3f, 0x80, 0x57, 0xb6, 0x3e, 0xf2, 0x59, 0xed, 0x3d, 0x0e, 0x05, 0xfb, 0xbe, 0x30, 0x96, 0x28, 0x3e, 0x86, 0x81, 0x12, 0xbf, 0xc9, 0x0b, 0x6e, 0x3e, 0x2f, 0xf6, 0x1e, 0xbe, 0x08, 0x29, 0xbd, 0x3c, 0x62, 0xc5, 0x24, 0x3f, 0xf8, 0x13, 0xf4, 0xbe, 0xb1, 0x15, 0x20, 0xbd, 0x0a, 0x23, 0x3e, 0xbe, 0x82, 0x3a, 0xda, 0xbe, 0x19, 0x77, 0x64, 0xbe, 0x82, 0x78, 0x17, 0xbf, 0x65, 0x9d, 0x2d, 0xbe, 0x42, 0x08, 0xbd, 0x3f, 0x71, 0x8f, 0xbd, 0x3f, 0x6d, 0x02, 0xa8, 0x3f, 0x8e, 0x9c, 0xc7, 0xbe, 0xa1, 0xf9, 0x25, 0x3e, 0x43, 0xd8, 0x54, 0xbe, 0xf5, 0x62, 0x5f, 0x3e, 0xbe, 0xa7, 0x01, 0xbf, 0xb5, 0x47, 0x22, 0xbe, 0xdf, 0x3c, 0x03, 0x3f, 0xa8, 0xd0, 0x42, 0x3e, 0xf5, 0xbb, 0x65, 0xbf, 0x21, 0x27, 0x10, 0x3e, 0x8a, 0x21, 0x45, 0x3e, 0x96, 0xd3, 0x88, 0xbe, 0x1e, 0xbb, 0xe9, 0x3e, 0xb3, 0x88, 0x6e, 0xbd, 0xed, 0x90, 0x6e, 0x3d, 0xf0, 0x4d, 0x5d, 0x3e, 0x7b, 0xb2, 0xa5, 0xbd, 0x0a, 0x22, 0x34, 0xbf, 0x82, 0x87, 0xc8, 0x3e, 0x11, 0x2d, 0xc3, 0xbc, 0x53, 0x31, 0x17, 0x3e, 0x77, 0x7e, 0x79, 0x3e, 0xfa, 0x4d, 0x36, 0xbe, 0x86, 0x68, 0x14, 0xbe, 0x7e, 0x3b, 0xe8, 0xbe, 0x0b, 0x3c, 0x0c, 0xbd, 0x7f, 0xa3, 0x47, 0x3d, 0x46, 0x3c, 0x58, 0xbf, 0xf2, 0xcc, 0x11, 0x3f, 0x4f, 0x03, 0xd7, 0x3c, 0x66, 0x04, 0xcc, 0x3e, 0xb7, 0xb6, 0xf8, 0x3d, 0xfa, 0x67, 0x57, 0x3f, 0xf4, 0x99, 0x4c, 0x3f, 0x5b, 0xb2, 0xba, 0xbe, 0x40, 0xc8, 0x8b, 0xbe, 0x5b, 0xb2, 0xf5, 0x3b, 0xbe, 0x62, 0x24, 0xbe, 0xc2, 0x36, 0x24, 0xbe, 0x18, 0x98, 0x5c, 0xbe, 0x1b, 0x7b, 0x91, 0x3e, 0x82, 0xb2, 0x68, 0xbf, 0xc2, 0x74, 0xc6, 0xbc, 0x2e, 0x27, 0x81, 0xbe, 0xdc, 0x82, 0xa3, 0x3e, 0xaa, 0xab, 0x06, 0x3e, 0x8a, 0x98, 0x92, 0x3e, 0x75, 0x96, 0x0a, 0x3f, 0x75, 0x1e, 0x94, 0xbe, 0x0d, 0x2b, 0x0a, 0x3f, 0x4d, 0x15, 0xdb, 0xbe, 0x84, 0x92, 0xb6, 0x3e, 0xe7, 0xd6, 0x02, 0xbe, 0xbd, 0x46, 0x89, 0x3d, 0xd6, 0x2d, 0xe2, 0x3e, 0x6d, 0x70, 0x4b, 0x3d, 0xaf, 0xe4, 0x98, 0x3c, 0x97, 0xa7, 0xef, 0xbd, 0x0a, 0xd4, 0x06, 0x3f, 0x62, 0xe2, 0xdb, 0x3d, 0x87, 0xa1, 0x25, 0xbf, 0x70, 0x3f, 0xa0, 0xbe, 0xe0, 0xcf, 0x1a, 0x3e, 0xfc, 0xb9, 0xfc, 0x3e, 0xec, 0x37, 0xa8, 0x3e, 0x50, 0x55, 0x20, 0x3e, 0xee, 0xe8, 0xc8, 0x3e, 0xd3, 0xf8, 0x9d, 0x3d, 0x8f, 0xe5, 0x8c, 0xbe, 0x8d, 0xe2, 0xc7, 0x3e, 0xc1, 0x34, 0x58, 0x3e, 0x77, 0xa9, 0x60, 0xbe, 0x0f, 0xe7, 0x00, 0x3f, 0xde, 0x43, 0xbb, 0x3d, 0xfb, 0x56, 0x29, 0x3f, 0x64, 0xdb, 0x3f, 0x3f, 0x81, 0x29, 0x9e, 0xbe, 0xca, 0xce, 0x91, 0xbd, 0xf4, 0x3c, 0xdd, 0x3e, 0x32, 0x5a, 0x8e, 0xbd, 0xb4, 0x30, 0x02, 0x3f, 0x6f, 0x16, 0x30, 0x3e, 0x19, 0xa5, 0x6f, 0x3e, 0x1f, 0x48, 0x95, 0x3e, 0x49, 0xf9, 0x0b, 0xbe, 0x4f, 0xb8, 0xa6, 0x3e, 0x87, 0x22, 0x8f, 0xbd, 0xc7, 0x7d, 0xa3, 0xbd, 0xb1, 0x20, 0x8a, 0x3d, 0x61, 0x9f, 0x2b, 0xbe, 0x53, 0xad, 0xbe, 0x3e, 0x0a, 0x51, 0x8e, 0x3e, 0x3a, 0xf2, 0x15, 0xbe, 0x1f, 0xca, 0x45, 0xbc, 0x53, 0xb6, 0x0f, 0x3f, 0x07, 0x16, 0x1f, 0xbe, 0x2f, 0xd3, 0x1c, 0xbd, 0xb3, 0x74, 0xcd, 0xbe, 0xa3, 0x4e, 0x3d, 0xbf, 0x08, 0x7a, 0x75, 0x3e, 0xb1, 0x17, 0xc5, 0x3d, 0xb4, 0x95, 0x5f, 0x3d, 0xf2, 0x79, 0x31, 0x3d, 0x91, 0xbe, 0xc2, 0xbe, 0x0e, 0x5d, 0x39, 0x3e, 0x56, 0x03, 0xab, 0x3e, 0xc9, 0x67, 0x88, 0x3f, 0x8b, 0x1d, 0x31, 0x3e, 0x80, 0xa8, 0xfd, 0x3e, 0x07, 0x92, 0x7e, 0xbd, 0x95, 0xcb, 0x3b, 0xbf, 0x41, 0x75, 0x52, 0x3f, 0x8d, 0x8c, 0xa1, 0x3e, 0xd8, 0xbb, 0x26, 0x3f, 0xc0, 0xfc, 0xb9, 0x3e, 0xef, 0xe8, 0x1a, 0x3d, 0xc8, 0x63, 0x89, 0x3c, 0x5e, 0x1b, 0xfb, 0xbd, 0x67, 0xf7, 0x93, 0xbf, 0xc2, 0x7e, 0x31, 0x3e, 0x74, 0xd9, 0x8b, 0xbe, 0x14, 0x48, 0xac, 0xbd, 0x45, 0x7d, 0xe7, 0x3d, 0x4f, 0xbd, 0x83, 0x3e, 0x7f, 0xb6, 0x24, 0x3d, 0x52, 0xa9, 0x79, 0xbe, 0x8d, 0x43, 0x02, 0x3e, 0x0e, 0x60, 0x36, 0x3e, 0x05, 0x5e, 0x69, 0xbe, 0xa3, 0xfe, 0x6b, 0x3e, 0x9c, 0x58, 0x01, 0x3e, 0x31, 0x46, 0xde, 0x3d, 0xf8, 0xed, 0x6e, 0x3d, 0x59, 0xa2, 0xfd, 0xbd, 0x07, 0x07, 0x5e, 0x3d, 0xc0, 0xa2, 0xcd, 0xbd, 0x46, 0xab, 0x08, 0x3e, 0x75, 0x9e, 0x79, 0x3e, 0x7f, 0x21, 0x89, 0x3c, 0x2e, 0x88, 0x92, 0xbd, 0xad, 0x95, 0xa4, 0xbe, 0xe0, 0xaa, 0x69, 0x3e, 0xe1, 0x6d, 0xb5, 0xbc, 0xb4, 0xc6, 0x66, 0xbb, 0x3c, 0xf5, 0x81, 0xbe, 0x03, 0x3f, 0x30, 0xbe, 0x68, 0x48, 0x94, 0x3d, 0x7f, 0xa0, 0xa8, 0x3c, 0x54, 0x6f, 0x8e, 0x3c, 0xd2, 0xeb, 0x0c, 0xbd, 0x51, 0x30, 0x17, 0x3e, 0xc4, 0xc2, 0x7f, 0xbe, 0x6d, 0x55, 0x01, 0x3e, 0x03, 0x20, 0x02, 0x3e, 0x83, 0x42, 0x28, 0xbe, 0x35, 0x71, 0xa6, 0xbd, 0x23, 0xa2, 0x47, 0xbc, 0x60, 0xdb, 0x16, 0x3e, 0xe2, 0x88, 0x01, 0xbe, 0x6e, 0xe2, 0x46, 0xbe, 0xc6, 0xd0, 0x28, 0x3e, 0x8f, 0x13, 0xe9, 0xbd, 0x25, 0x67, 0x80, 0xbe, 0xed, 0xa9, 0x1a, 0xbc, 0x98, 0xc4, 0x3d, 0xbe, 0x23, 0x23, 0x83, 0xbd, 0xe1, 0x73, 0x12, 0xbe, 0x02, 0x92, 0xb4, 0xbd, 0x9c, 0x9b, 0xf2, 0x3c, 0xc2, 0x18, 0x33, 0x3e, 0xce, 0x76, 0x13, 0xbe, 0xf7, 0x53, 0x8b, 0xbe, 0xa3, 0x12, 0x5e, 0xbe, 0xbc, 0x5a, 0xcc, 0x3d, 0xbe, 0x49, 0x8c, 0xbe, 0xeb, 0x2a, 0xa7, 0xbd, 0xeb, 0xa7, 0xcb, 0x3d, 0x14, 0x8d, 0x30, 0x3e, 0x51, 0x71, 0x20, 0x3e, 0xb0, 0x2e, 0x7f, 0xbe, 0x13, 0xb8, 0x03, 0x3e, 0x93, 0xa3, 0x8a, 0xbe, 0x8c, 0x96, 0x80, 0xbb, 0x31, 0x66, 0xdc, 0xbe, 0xdf, 0xce, 0xb4, 0x3e, 0x91, 0xdf, 0x7f, 0x3e, 0x7d, 0x06, 0x21, 0x3d, 0x46, 0xbb, 0xee, 0xbd, 0x19, 0x1a, 0x2c, 0x3d, 0xb9, 0x4d, 0x31, 0x3e, 0x90, 0x9e, 0xaf, 0x3d, 0x5d, 0x9b, 0x36, 0x3e, 0x28, 0x44, 0xc9, 0x3e, 0x3d, 0xa0, 0x8d, 0xbe, 0x26, 0xa9, 0xc8, 0x3c, 0xec, 0x3c, 0xa5, 0x3d, 0xc2, 0x62, 0x06, 0xbf, 0xb7, 0xe8, 0x9a, 0x3f, 0x0f, 0x83, 0x89, 0x3e, 0x30, 0x16, 0x0a, 0x3e, 0xd7, 0xac, 0x18, 0xbe, 0x3c, 0xc5, 0x4b, 0xbe, 0x34, 0x05, 0xf6, 0xbe, 0x3d, 0x71, 0x27, 0x3f, 0x9d, 0xd1, 0x50, 0xbb, 0x0a, 0xb3, 0xa4, 0x3e, 0x2e, 0x1d, 0x9a, 0x3e, 0xc2, 0x44, 0x4e, 0x3f, 0x6f, 0x1a, 0x0b, 0x3f, 0x8c, 0xc7, 0x29, 0x3f, 0xb9, 0xc7, 0x1c, 0x3c, 0xf2, 0x50, 0x27, 0x3f, 0x10, 0x2c, 0x0c, 0xbe, 0x11, 0x39, 0x03, 0x3f, 0xc6, 0x06, 0x56, 0x3f, 0xaf, 0x08, 0x93, 0xbe, 0xd9, 0x58, 0x99, 0x3e, 0xd8, 0x92, 0x05, 0xbf, 0xf8, 0x78, 0x81, 0xbf, 0x91, 0x52, 0xe5, 0xbc, 0x97, 0x3e, 0x11, 0x3e, 0x21, 0x20, 0x4a, 0xbd, 0xd3, 0xe7, 0x9b, 0x3e, 0x8f, 0x14, 0x1c, 0x3f, 0x0a, 0xf8, 0x2d, 0x3e, 0xdc, 0x51, 0xc0, 0x3e, 0xae, 0x13, 0x55, 0x3e, 0x7e, 0xa2, 0x5e, 0x3e, 0xe3, 0xa9, 0x38, 0x3e, 0x78, 0x0c, 0xea, 0xbd, 0x1a, 0x1b, 0x76, 0x3f, 0x9b, 0xc3, 0x25, 0x3d, 0x2e, 0x5a, 0x77, 0xbe, 0xb6, 0x61, 0x83, 0xbe, 0x89, 0x7a, 0xe6, 0xbe, 0x1e, 0x89, 0x21, 0x3f, 0xbb, 0x92, 0x03, 0x3f, 0xb2, 0x37, 0xeb, 0xbe, 0xe0, 0xfa, 0x91, 0x3e, 0x86, 0xa4, 0xf8, 0x3d, 0x5c, 0x6b, 0xfd, 0xbe, 0x92, 0xcd, 0x01, 0xbd, 0x2f, 0x1b, 0x6d, 0x3e, 0xce, 0xac, 0x56, 0xbe, 0x4c, 0x3b, 0xa4, 0x3e, 0xe3, 0x0d, 0xe2, 0xbc, 0xe7, 0xe3, 0x4c, 0xbe, 0xf8, 0x36, 0xbf, 0xbe, 0xb0, 0xef, 0x69, 0xbe, 0x04, 0x4e, 0x12, 0x3f, 0x7c, 0x36, 0xe3, 0x3e, 0x8d, 0xc1, 0x9c, 0x3e, 0x45, 0x6c, 0x7f, 0xbc, 0x7c, 0x1a, 0x8f, 0x3d, 0xa0, 0xf8, 0x39, 0xbe, 0x02, 0x97, 0x7a, 0x3f, 0xff, 0xdb, 0x8e, 0x3e, 0x0d, 0xb0, 0xa9, 0x3d, 0xf4, 0x2b, 0x91, 0x3e, 0x09, 0xbd, 0xcd, 0xbe, 0x7e, 0x5e, 0x8d, 0xbe, 0xae, 0x3e, 0x3e, 0x3f, 0x3e, 0xef, 0x81, 0xbb, 0x3d, 0xa3, 0x35, 0xbf, 0x89, 0x07, 0x9c, 0xbd, 0x55, 0xa2, 0x7e, 0xbf, 0x85, 0x61, 0xd0, 0x3d, 0xfc, 0xaa, 0x87, 0x3e, 0x23, 0x48, 0x55, 0xbe, 0xab, 0x2c, 0x2d, 0x3e, 0x12, 0x4c, 0xb2, 0xbe, 0xb9, 0xc0, 0x3c, 0xbf, 0x51, 0xef, 0xbc, 0xbe, 0x14, 0x22, 0x4a, 0x3e, 0x1a, 0x5c, 0xe4, 0x3e, 0x40, 0x9b, 0xb5, 0xbe, 0x52, 0x6f, 0xdd, 0x3e, 0xae, 0xc7, 0x6b, 0xbe, 0x23, 0x01, 0x90, 0x3e, 0xd8, 0x4a, 0x83, 0xbe, 0x84, 0x25, 0xb3, 0x3c, 0x51, 0x92, 0xca, 0x3e, 0xe3, 0x10, 0x25, 0xbe, 0xc3, 0x0b, 0x92, 0xbd, 0xed, 0xe1, 0xce, 0x3e, 0x77, 0xc3, 0x60, 0xbe, 0xd6, 0x4c, 0x5b, 0x3f, 0x16, 0xee, 0x3a, 0x3e, 0x1b, 0x61, 0xf2, 0x3e, 0xc1, 0xad, 0xf9, 0x3e, 0xb5, 0x4f, 0x37, 0x3f, 0xb1, 0xb2, 0x20, 0xbf, 0x02, 0x6b, 0x82, 0xbe, 0xb7, 0x65, 0x0a, 0xbf, 0xcc, 0xcd, 0x4f, 0x3d, 0xb9, 0xac, 0x4e, 0x3e, 0x83, 0x7f, 0x66, 0x3e, 0xde, 0xa0, 0xff, 0x3e, 0xc1, 0x73, 0x0a, 0xbf, 0xe9, 0x12, 0xf8, 0xbb, 0xc7, 0xe5, 0xa3, 0x3e, 0xa7, 0x77, 0x0f, 0x3d, 0xc9, 0x24, 0x65, 0x3f, 0xe8, 0x73, 0xb0, 0x3e, 0x52, 0x5f, 0x9f, 0xbe, 0xa3, 0x88, 0x62, 0xbd, 0x17, 0x82, 0xa3, 0x3d, 0x15, 0x15, 0x3f, 0xbe, 0x72, 0xe5, 0x36, 0x3f, 0xd4, 0x47, 0x84, 0xbd, 0x59, 0x67, 0xaf, 0x3c, 0xa4, 0xd3, 0x32, 0x3e, 0xca, 0x29, 0xb1, 0xbe, 0xab, 0x92, 0x30, 0xbf, 0xf7, 0x46, 0x71, 0x3e, 0xac, 0x19, 0x72, 0x3e, 0x3c, 0x91, 0xfc, 0x3d, 0x6c, 0xf7, 0x5d, 0x3c, 0xf1, 0x7f, 0x66, 0xbe, 0x89, 0x56, 0xa0, 0x3e, 0xaa, 0x66, 0x17, 0x3d, 0x6d, 0xff, 0x14, 0xbf, 0xe0, 0x5b, 0xb7, 0xbd, 0xf5, 0xeb, 0xdd, 0x3e, 0x0b, 0x1a, 0x15, 0xbe, 0xa2, 0xd2, 0xaf, 0xbd, 0x89, 0x0e, 0xfb, 0x3e, 0x9e, 0xae, 0x47, 0x3d, 0x64, 0x13, 0x0c, 0xbf, 0x46, 0x45, 0x18, 0x3f, 0x8a, 0xb3, 0xfb, 0xbe, 0xda, 0x7f, 0xc4, 0x3e, 0x1a, 0x03, 0x0f, 0xbe, 0x15, 0xd7, 0xd3, 0x3e, 0x80, 0x6d, 0x28, 0x3f, 0x92, 0x16, 0xa9, 0x3d, 0x84, 0x56, 0x16, 0xbf, 0x84, 0xf1, 0xb1, 0xbe, 0x64, 0x86, 0x40, 0xbe, 0xd1, 0x15, 0xb3, 0xbe, 0xd5, 0x20, 0x4e, 0x3f, 0x5c, 0xc1, 0x40, 0xbf, 0x0e, 0xf8, 0x12, 0x3f, 0x80, 0xad, 0xb0, 0x3e, 0x40, 0xa2, 0x26, 0x3f, 0xcf, 0x7c, 0x85, 0x3e, 0x87, 0x67, 0x3d, 0xbf, 0xb2, 0x45, 0xbb, 0x3e, 0x6b, 0xb2, 0xdd, 0x3d, 0xb8, 0xb6, 0x0a, 0x3f, 0xc5, 0x08, 0x8a, 0x3e, 0x59, 0x16, 0xae, 0xbe, 0x20, 0x0f, 0x99, 0x3e, 0xbc, 0xde, 0xa6, 0xbe, 0x3e, 0x29, 0x32, 0x3f, 0x0d, 0xb4, 0x38, 0x3f, 0x36, 0x59, 0x70, 0x3f, 0xd1, 0x26, 0x9e, 0x3e, 0x22, 0xab, 0xc4, 0x3e, 0x9f, 0x03, 0xd1, 0xbe, 0x29, 0xb2, 0x66, 0x3c, 0x50, 0x1e, 0x3c, 0x3f, 0x6d, 0x20, 0xe4, 0xbe, 0x71, 0x86, 0xa9, 0x3f, 0x05, 0x4b, 0xd4, 0xbd, 0xba, 0x5f, 0x01, 0x3f, 0xde, 0x94, 0xdd, 0x3c, 0xe0, 0x80, 0x7c, 0x3d, 0xb3, 0x10, 0x47, 0x3e, 0x83, 0xc1, 0xa8, 0x3e, 0xbe, 0xfc, 0x02, 0x3e, 0xce, 0xf2, 0x3c, 0x3c, 0x00, 0x00, 0x00, 0x00, 0x00, 0x00, 0x00, 0x00, 0x00, 0x00, 0x00, 0x00, 0x7c, 0xf8, 0xff, 0xff, 0x00, 0x00, 0x00, 0x00, 0xce, 0xfd, 0xff, 0xff, 0x04, 0x00, 0x00, 0x00, 0x1c, 0x00, 0x00, 0x00, 0x67, 0x45, 0xe3, 0x3e, 0x38, 0x97, 0x0c, 0x3e, 0xd2, 0xbb, 0x51, 0xba, 0x92, 0x31, 0x46, 0x3e, 0x3e, 0x7f, 0xbc, 0x3e, 0x58, 0xda, 0x37, 0x3d, 0x80, 0xdd, 0x2a, 0x3c, 0x00, 0x00, 0x00, 0x00, 0x00, 0x00, 0x00, 0x00, 0xfe, 0xfd, 0xff, 0xff, 0x04, 0x00, 0x00, 0x00, 0x28, 0x00, 0x00, 0x00, 0xe4, 0x12, 0x90, 0xbd, 0x08, 0x89, 0xfc, 0x3d, 0x3b, 0xe4, 0xcf, 0x3c, 0x07, 0xb6, 0x74, 0xbc, 0x9a, 0x09, 0x90, 0xbd, 0x55, 0xd8, 0x2a, 0x3e, 0xfd, 0xd8, 0xbf, 0xbb, 0xc2, 0xcf, 0x87, 0xbd, 0x4d, 0xa1, 0x6e, 0xbd, 0x0d, 0x3f, 0xbd, 0xbc, 0x00, 0x00, 0x00, 0x00, 0xec, 0xf8, 0xff, 0xff, 0x00, 0x00, 0x00, 0x00, 0x00, 0x00, 0x00, 0x00, 0x00, 0x00, 0x00, 0x00, 0xfc, 0xf8, 0xff, 0xff, 0x00, 0x00, 0x00, 0x00, 0x00, 0x00, 0x00, 0x00, 0x00, 0x00, 0x00, 0x00, 0x0c, 0xf9, 0xff, 0xff, 0x00, 0x00, 0x00, 0x00, 0x00, 0x00, 0x00, 0x00, 0x00, 0x00, 0x00, 0x00, 0x1c, 0xf9, 0xff, 0xff, 0x00, 0x00, 0x00, 0x00, 0x6e, 0xfe, 0xff, 0xff, 0x04, 0x00, 0x00, 0x00, 0xfc, 0x00, 0x00, 0x00, 0x4e, 0xbf, 0x69, 0xbf, 0xf8, 0x27, 0x92, 0x3f, 0xde, 0xc8, 0x8e, 0x3e, 0x80, 0xc3, 0xfc, 0x3d, 0xed, 0x95, 0x48, 0x3f, 0x5f, 0xd7, 0xe0, 0x3e, 0x6a, 0x1b, 0x65, 0xbe, 0x24, 0xa4, 0x2c, 0xbf, 0x0e, 0x4b, 0xae, 0x3e, 0xac, 0x3e, 0x3e, 0xbe, 0x73, 0xd5, 0x80, 0x3f, 0xbc, 0x17, 0x74, 0x3f, 0x89, 0x08, 0x7b, 0x3f, 0x00, 0x38, 0x52, 0xbf, 0xce, 0x3a, 0x32, 0x3e, 0x4c, 0xf7, 0xb2, 0x3e, 0x06, 0x61, 0x73, 0x3f, 0x2a, 0xa4, 0x1a, 0x3f, 0x87, 0x04, 0x15, 0xbf, 0xe3, 0x03, 0x36, 0x3f, 0x68, 0xdf, 0x90, 0x3f, 0xe4, 0x38, 0xd1, 0xbe, 0xbf, 0xd9, 0x4e, 0x3f, 0xe9, 0xba, 0xab, 0x3e, 0x86, 0x8c, 0x8b, 0xbe, 0x68, 0x45, 0x86, 0x3f, 0x6b, 0x9e, 0xc8, 0xbe, 0x32, 0x23, 0xd2, 0x3d, 0x68, 0x0c, 0xa0, 0xbf, 0x38, 0x06, 0x54, 0x3f, 0xec, 0xe4, 0x69, 0xbf, 0xce, 0x66, 0xc2, 0x3c, 0xd8, 0x0d, 0x87, 0x3e, 0x71, 0xaf, 0x6b, 0xbf, 0xe0, 0xef, 0xb2, 0x3f, 0x3e, 0xcd, 0x0e, 0x3f, 0x92, 0x0b, 0x87, 0x3e, 0xaa, 0xff, 0x04, 0x3f, 0x9e, 0x8f, 0x13, 0xbe, 0x40, 0xf2, 0x87, 0x3e, 0xa6, 0x41, 0x41, 0xbe, 0xe0, 0x14, 0x8b, 0x36, 0xa2, 0x1a, 0xc9, 0x3f, 0x29, 0x6a, 0xde, 0x3e, 0xde, 0xc8, 0xd2, 0x3e, 0xa0, 0x34, 0x37, 0x3e, 0x26, 0x94, 0x06, 0x3f, 0x4d, 0xad, 0x26, 0x3d, 0xe9, 0x8c, 0xb5, 0x3e, 0x18, 0xaa, 0x15, 0x3e, 0x62, 0xd5, 0xa1, 0x3f, 0x58, 0x49, 0xbe, 0xbe, 0x0b, 0x1a, 0x61, 0xbf, 0x25, 0x16, 0xdf, 0xbf, 0xb9, 0x61, 0x0a, 0xbe, 0x3a, 0xdd, 0x8b, 0x3f, 0xdb, 0x69, 0xca, 0x3e, 0x25, 0x59, 0x7f, 0x3f, 0x46, 0x09, 0x92, 0x3d, 0x30, 0x80, 0x42, 0xbf, 0x62, 0x04, 0xec, 0xbe, 0xd9, 0xca, 0x66, 0x3d, 0x7d, 0x90, 0x7b, 0x3f, 0x2c, 0xfa, 0xff, 0xff, 0x00, 0x00, 0x00, 0x00, 0x00, 0x00, 0x00, 0x00, 0x00, 0x00, 0x00, 0x00, 0x3c, 0xfa, 0xff, 0xff, 0x00, 0x00, 0x00, 0x00, 0x00, 0x00, 0x00, 0x00, 0x0f, 0x00, 0x00, 0x00, 0x54, 0x4f, 0x43, 0x4f, 0x20, 0x43, 0x6f, 0x6e, 0x76, 0x65, 0x72, 0x74, 0x65, 0x64, 0x2e, 0x00, 0x01, 0x00, 0x00, 0x00, 0x10, 0x00, 0x00, 0x00, 0x0c, 0x00, 0x14, 0x00, 0x04, 0x00, 0x08, 0x00, 0x0c, 0x00, 0x10, 0x00, 0x0c, 0x00, 0x00, 0x00, 0xac, 0x01, 0x00, 0x00, 0xa0, 0x01, 0x00, 0x00, 0x94, 0x01, 0x00, 0x00, 0x04, 0x00, 0x00, 0x00, 0x05, 0x00, 0x00, 0x00, 0x38, 0x01, 0x00, 0x00, 0xd4, 0x00, 0x00, 0x00, 0x88, 0x00, 0x00, 0x00, 0x40, 0x00, 0x00, 0x00, 0x04, 0x00, 0x00, 0x00, 0x4a, 0xff, 0xff, 0xff, 0x00, 0x00, 0x00, 0x09, 0x03, 0x00, 0x00, 0x00, 0x24, 0x00, 0x00, 0x00, 0x18, 0x00, 0x00, 0x00, 0x0c, 0x00, 0x00, 0x00, 0x00, 0x00, 0x06, 0x00, 0x08, 0x00, 0x04, 0x00, 0x06, 0x00, 0x00, 0x00, 0x00, 0x00, 0x80, 0x3f, 0x01, 0x00, 0x00, 0x00, 0x00, 0x00, 0x00, 0x00, 0x01, 0x00, 0x00, 0x00, 0x07, 0x00, 0x00, 0x00, 0xca, 0xff, 0xff, 0xff, 0x00, 0x00, 0x00, 0x08, 0x01, 0x00, 0x00, 0x00, 0x18, 0x00, 0x00, 0x00, 0x0c, 0x00, 0x00, 0x00, 0x04, 0x00, 0x00, 0x00, 0xec, 0xfa, 0xff, 0xff, 0x01, 0x00, 0x00, 0x00, 0x07, 0x00, 0x00, 0x00, 0x03, 0x00, 0x00, 0x00, 0x06, 0x00, 0x00, 0x00, 0x08, 0x00, 0x00, 0x00, 0x09, 0x00, 0x00, 0x00, 0x00, 0x00, 0x0e, 0x00, 0x18, 0x00, 0x08, 0x00, 0x0c, 0x00, 0x10, 0x00, 0x07, 0x00, 0x14, 0x00, 0x0e, 0x00, 0x00, 0x00, 0x00, 0x00, 0x00, 0x08, 0x01, 0x00, 0x00, 0x00, 0x1c, 0x00, 0x00, 0x00, 0x10, 0x00, 0x00, 0x00, 0x04, 0x00, 0x00, 0x00, 0xce, 0xfa, 0xff, 0xff, 0x00, 0x00, 0x00, 0x01, 0x01, 0x00, 0x00, 0x00, 0x06, 0x00, 0x00, 0x00, 0x03, 0x00, 0x00, 0x00, 0x0a, 0x00, 0x00, 0x00, 0x04, 0x00, 0x00, 0x00, 0x05, 0x00, 0x00, 0x00, 0x00, 0x00, 0x0e, 0x00, 0x1a, 0x00, 0x08, 0x00, 0x0c, 0x00, 0x10, 0x00, 0x07, 0x00, 0x14, 0x00, 0x0e, 0x00, 0x00, 0x00, 0x00, 0x00, 0x00, 0x05, 0x02, 0x00, 0x00, 0x00, 0x3c, 0x00, 0x00, 0x00, 0x30, 0x00, 0x00, 0x00, 0x14, 0x00, 0x00, 0x00, 0x00, 0x00, 0x0e, 0x00, 0x18, 0x00, 0x07, 0x00, 0x08, 0x00, 0x0c, 0x00, 0x10, 0x00, 0x14, 0x00, 0x0e, 0x00, 0x00, 0x00, 0x00, 0x00, 0x00, 0x01, 0x02, 0x00, 0x00, 0x00, 0x02, 0x00, 0x00, 0x00, 0x02, 0x00, 0x00, 0x00, 0x02, 0x00, 0x00, 0x00, 0x01, 0x00, 0x00, 0x00, 0x0a, 0x00, 0x00, 0x00, 0x01, 0x00, 0x00, 0x00, 0x03, 0x00, 0x00, 0x00, 0x00, 0x00, 0x0e, 0x00, 0x16, 0x00, 0x00, 0x00, 0x08, 0x00, 0x0c, 0x00, 0x07, 0x00, 0x10, 0x00, 0x0e, 0x00, 0x00, 0x00, 0x00, 0x00, 0x00, 0x02, 0x38, 0x00, 0x00, 0x00, 0x2c, 0x00, 0x00, 0x00, 0x14, 0x00, 0x00, 0x00, 0x00, 0x00, 0x0e, 0x00, 0x14, 0x00, 0x06, 0x00, 0x08, 0x00, 0x0c, 0x00, 0x10, 0x00, 0x07, 0x00, 0x0e, 0x00, 0x00, 0x00, 0x00, 0x00, 0x01, 0x01, 0x01, 0x00, 0x00, 0x00, 0x01, 0x00, 0x00, 0x00, 0x07, 0x00, 0x00, 0x00, 0x01, 0x00, 0x00, 0x00, 0x03, 0x00, 0x00, 0x00, 0x03, 0x00, 0x00, 0x00, 0x0b, 0x00, 0x00, 0x00, 0x01, 0x00, 0x00, 0x00, 0x02, 0x00, 0x00, 0x00, 0x01, 0x00, 0x00, 0x00, 0x00, 0x00, 0x00, 0x00, 0x01, 0x00, 0x00, 0x00, 0x0b, 0x00, 0x00, 0x00, 0x0c, 0x00, 0x00, 0x00, 0xc8, 0x03, 0x00, 0x00, 0x54, 0x03, 0x00, 0x00, 0x08, 0x03, 0x00, 0x00, 0xb8, 0x02, 0x00, 0x00, 0x54, 0x02, 0x00, 0x00, 0x08, 0x02, 0x00, 0x00, 0xc0, 0x01, 0x00, 0x00, 0x74, 0x01, 0x00, 0x00, 0x10, 0x01, 0x00, 0x00, 0xc4, 0x00, 0x00, 0x00, 0x68, 0x00, 0x00, 0x00, 0x04, 0x00, 0x00, 0x00, 0x76, 0xfc, 0xff, 0xff, 0x48, 0x00, 0x00, 0x00, 0x01, 0x00, 0x00, 0x00, 0x2c, 0x00, 0x00, 0x00, 0x0c, 0x00, 0x00, 0x00, 0x08, 0x00, 0x0c, 0x00, 0x04, 0x00, 0x08, 0x00, 0x08, 0x00, 0x00, 0x00, 0x10, 0x00, 0x00, 0x00, 0x04, 0x00, 0x00, 0x00, 0x01, 0x00, 0x00, 0x00, 0x00, 0x00, 0x7f, 0x43, 0x01, 0x00, 0x00, 0x00, 0x00, 0x00, 0x00, 0x00, 0x0f, 0x00, 0x00, 0x00, 0x63, 0x6f, 0x6e, 0x76, 0x32, 0x64, 0x5f, 0x31, 0x36, 0x5f, 0x69, 0x6e, 0x70, 0x75, 0x74, 0x00, 0x04, 0x00, 0x00, 0x00, 0x01, 0x00, 0x00, 0x00, 0x08, 0x00, 0x00, 0x00, 0x08, 0x00, 0x00, 0x00, 0x01, 0x00, 0x00, 0x00, 0xd6, 0xfc, 0xff, 0xff, 0x40, 0x00, 0x00, 0x00, 0x04, 0x00, 0x00, 0x00, 0x0c, 0x00, 0x00, 0x00, 0x04, 0x00, 0x00, 0x00, 0xc8, 0xfc, 0xff, 0xff, 0x25, 0x00, 0x00, 0x00, 0x4d, 0x4e, 0x49, 0x53, 0x54, 0x5f, 0x44, 0x69, 0x67, 0x69, 0x74, 0x73, 0x2f, 0x6d, 0x61, 0x78, 0x5f, 0x70, 0x6f, 0x6f, 0x6c, 0x69, 0x6e, 0x67, 0x32, 0x64, 0x5f, 0x31, 0x36, 0x2f, 0x4d, 0x61, 0x78, 0x50, 0x6f, 0x6f, 0x6c, 0x00, 0x00, 0x00, 0x04, 0x00, 0x00, 0x00, 0x01, 0x00, 0x00, 0x00, 0x03, 0x00, 0x00, 0x00, 0x03, 0x00, 0x00, 0x00, 0x07, 0x00, 0x00, 0x00, 0x2e, 0xfd, 0xff, 0xff, 0x3c, 0x00, 0x00, 0x00, 0x07, 0x00, 0x00, 0x00, 0x0c, 0x00, 0x00, 0x00, 0x04, 0x00, 0x00, 0x00, 0x20, 0xfd, 0xff, 0xff, 0x21, 0x00, 0x00, 0x00, 0x4d, 0x4e, 0x49, 0x53, 0x54, 0x5f, 0x44, 0x69, 0x67, 0x69, 0x74, 0x73, 0x2f, 0x64, 0x65, 0x6e, 0x73, 0x65, 0x5f, 0x33, 0x33, 0x2f, 0x4d, 0x61, 0x74, 0x4d, 0x75, 0x6c, 0x5f, 0x62, 0x69, 0x61, 0x73, 0x00, 0x00, 0x00, 0x01, 0x00, 0x00, 0x00, 0x0a, 0x00, 0x00, 0x00, 0x76, 0xfd, 0xff, 0xff, 0x50, 0x00, 0x00, 0x00, 0x0b, 0x00, 0x00, 0x00, 0x0c, 0x00, 0x00, 0x00, 0x04, 0x00, 0x00, 0x00, 0x68, 0xfd, 0xff, 0xff, 0x35, 0x00, 0x00, 0x00, 0x4d, 0x4e, 0x49, 0x53, 0x54, 0x5f, 0x44, 0x69, 0x67, 0x69, 0x74, 0x73, 0x2f, 0x64, 0x65, 0x6e, 0x73, 0x65, 0x5f, 0x33, 0x33, 0x2f, 0x4d, 0x61, 0x74, 0x4d, 0x75, 0x6c, 0x2f, 0x52, 0x65, 0x61, 0x64, 0x56, 0x61, 0x72, 0x69, 0x61, 0x62, 0x6c, 0x65, 0x4f, 0x70, 0x2f, 0x74, 0x72, 0x61, 0x6e, 0x73, 0x70, 0x6f, 0x73, 0x65, 0x00, 0x00, 0x00, 0x02, 0x00, 0x00, 0x00, 0x0a, 0x00, 0x00, 0x00, 0x10, 0x00, 0x00, 0x00, 0xd6, 0xfd, 0xff, 0xff, 0x38, 0x00, 0x00, 0x00, 0x06, 0x00, 0x00, 0x00, 0x0c, 0x00, 0x00, 0x00, 0x04, 0x00, 0x00, 0x00, 0xc8, 0xfd, 0xff, 0xff, 0x1d, 0x00, 0x00, 0x00, 0x4d, 0x4e, 0x49, 0x53, 0x54, 0x5f, 0x44, 0x69, 0x67, 0x69, 0x74, 0x73, 0x2f, 0x64, 0x65, 0x6e, 0x73, 0x65, 0x5f, 0x33, 0x33, 0x2f, 0x42, 0x69, 0x61, 0x73, 0x41, 0x64, 0x64, 0x00, 0x00, 0x00, 0x02, 0x00, 0x00, 0x00, 0x01, 0x00, 0x00, 0x00, 0x0a, 0x00, 0x00, 0x00, 0x1e, 0xfe, 0xff, 0xff, 0x34, 0x00, 0x00, 0x00, 0x05, 0x00, 0x00, 0x00, 0x0c, 0x00, 0x00, 0x00, 0x04, 0x00, 0x00, 0x00, 0x10, 0xfe, 0xff, 0xff, 0x1a, 0x00, 0x00, 0x00, 0x4d, 0x4e, 0x49, 0x53, 0x54, 0x5f, 0x44, 0x69, 0x67, 0x69, 0x74, 0x73, 0x2f, 0x64, 0x65, 0x6e, 0x73, 0x65, 0x5f, 0x33, 0x32, 0x2f, 0x52, 0x65, 0x6c, 0x75, 0x00, 0x00, 0x02, 0x00, 0x00, 0x00, 0x01, 0x00, 0x00, 0x00, 0x10, 0x00, 0x00, 0x00, 0x62, 0xfe, 0xff, 0xff, 0x3c, 0x00, 0x00, 0x00, 0x0c, 0x00, 0x00, 0x00, 0x0c, 0x00, 0x00, 0x00, 0x04, 0x00, 0x00, 0x00, 0x54, 0xfe, 0xff, 0xff, 0x21, 0x00, 0x00, 0x00, 0x4d, 0x4e, 0x49, 0x53, 0x54, 0x5f, 0x44, 0x69, 0x67, 0x69, 0x74, 0x73, 0x2f, 0x64, 0x65, 0x6e, 0x73, 0x65, 0x5f, 0x33, 0x32, 0x2f, 0x4d, 0x61, 0x74, 0x4d, 0x75, 0x6c, 0x5f, 0x62, 0x69, 0x61, 0x73, 0x00, 0x00, 0x00, 0x01, 0x00, 0x00, 0x00, 0x10, 0x00, 0x00, 0x00, 0xaa, 0xfe, 0xff, 0xff, 0x50, 0x00, 0x00, 0x00, 0x0a, 0x00, 0x00, 0x00, 0x0c, 0x00, 0x00, 0x00, 0x04, 0x00, 0x00, 0x00, 0x9c, 0xfe, 0xff, 0xff, 0x35, 0x00, 0x00, 0x00, 0x4d, 0x4e, 0x49, 0x53, 0x54, 0x5f, 0x44, 0x69, 0x67, 0x69, 0x74, 0x73, 0x2f, 0x64, 0x65, 0x6e, 0x73, 0x65, 0x5f, 0x33, 0x32, 0x2f, 0x4d, 0x61, 0x74, 0x4d, 0x75, 0x6c, 0x2f, 0x52, 0x65, 0x61, 0x64, 0x56, 0x61, 0x72, 0x69, 0x61, 0x62, 0x6c, 0x65, 0x4f, 0x70, 0x2f, 0x74, 0x72, 0x61, 0x6e, 0x73, 0x70, 0x6f, 0x73, 0x65, 0x00, 0x00, 0x00, 0x02, 0x00, 0x00, 0x00, 0x10, 0x00, 0x00, 0x00, 0x3f, 0x00, 0x00, 0x00, 0x0a, 0xff, 0xff, 0xff, 0x34, 0x00, 0x00, 0x00, 0x03, 0x00, 0x00, 0x00, 0x0c, 0x00, 0x00, 0x00, 0x04, 0x00, 0x00, 0x00, 0xfc, 0xfe, 0xff, 0xff, 0x1b, 0x00, 0x00, 0x00, 0x4d, 0x4e, 0x49, 0x53, 0x54, 0x5f, 0x44, 0x69, 0x67, 0x69, 0x74, 0x73, 0x2f, 0x63, 0x6f, 0x6e, 0x76, 0x32, 0x64, 0x5f, 0x31, 0x36, 0x2f, 0x52, 0x65, 0x6c, 0x75, 0x00, 0x04, 0x00, 0x00, 0x00, 0x01, 0x00, 0x00, 0x00, 0x06, 0x00, 0x00, 0x00, 0x06, 0x00, 0x00, 0x00, 0x07, 0x00, 0x00, 0x00, 0x56, 0xff, 0xff, 0xff, 0x3c, 0x00, 0x00, 0x00, 0x08, 0x00, 0x00, 0x00, 0x0c, 0x00, 0x00, 0x00, 0x04, 0x00, 0x00, 0x00, 0x48, 0xff, 0xff, 0xff, 0x22, 0x00, 0x00, 0x00, 0x4d, 0x4e, 0x49, 0x53, 0x54, 0x5f, 0x44, 0x69, 0x67, 0x69, 0x74, 0x73, 0x2f, 0x63, 0x6f, 0x6e, 0x76, 0x32, 0x64, 0x5f, 0x31, 0x36, 0x2f, 0x43, 0x6f, 0x6e, 0x76, 0x32, 0x44, 0x5f, 0x62, 0x69, 0x61, 0x73, 0x00, 0x00, 0x01, 0x00, 0x00, 0x00, 0x07, 0x00, 0x00, 0x00, 0x9e, 0xff, 0xff, 0xff, 0x48, 0x00, 0x00, 0x00, 0x02, 0x00, 0x00, 0x00, 0x0c, 0x00, 0x00, 0x00, 0x04, 0x00, 0x00, 0x00, 0x90, 0xff, 0xff, 0xff, 0x2c, 0x00, 0x00, 0x00, 0x4d, 0x4e, 0x49, 0x53, 0x54, 0x5f, 0x44, 0x69, 0x67, 0x69, 0x74, 0x73, 0x2f, 0x63, 0x6f, 0x6e, 0x76, 0x32, 0x64, 0x5f, 0x31, 0x36, 0x2f, 0x43, 0x6f, 0x6e, 0x76, 0x32, 0x44, 0x2f, 0x52, 0x65, 0x61, 0x64, 0x56, 0x61, 0x72, 0x69, 0x61, 0x62, 0x6c, 0x65, 0x4f, 0x70, 0x00, 0x00, 0x00, 0x00, 0x04, 0x00, 0x00, 0x00, 0x01, 0x00, 0x00, 0x00, 0x03, 0x00, 0x00, 0x00, 0x03, 0x00, 0x00, 0x00, 0x07, 0x00, 0x00, 0x00, 0x00, 0x00, 0x0e, 0x00, 0x14, 0x00, 0x04, 0x00, 0x00, 0x00, 0x08, 0x00, 0x0c, 0x00, 0x10, 0x00, 0x0e, 0x00, 0x00, 0x00, 0x28, 0x00, 0x00, 0x00, 0x09, 0x00, 0x00, 0x00, 0x10, 0x00, 0x00, 0x00, 0x08, 0x00, 0x00, 0x00, 0x04, 0x00, 0x04, 0x00, 0x04, 0x00, 0x00, 0x00, 0x08, 0x00, 0x00, 0x00, 0x49, 0x64, 0x65, 0x6e, 0x74, 0x69, 0x74, 0x79, 0x00, 0x00, 0x00, 0x00, 0x02, 0x00, 0x00, 0x00, 0x01, 0x00, 0x00, 0x00, 0x0a, 0x00, 0x00, 0x00, 0x04, 0x00, 0x00, 0x00, 0x40, 0x00, 0x00, 0x00, 0x28, 0x00, 0x00, 0x00, 0x14, 0x00, 0x00, 0x00, 0x04, 0x00, 0x00, 0x00, 0xfa, 0xff, 0xff, 0xff, 0x00, 0x19, 0x06, 0x00, 0x06, 0x00, 0x05, 0x00, 0x06, 0x00, 0x00, 0x00, 0x00, 0x11, 0x0a, 0x00, 0x0e, 0x00, 0x07, 0x00, 0x00, 0x00, 0x08, 0x00, 0x0a, 0x00, 0x00, 0x00, 0x00, 0x00, 0x00, 0x09, 0x03, 0x00, 0x00, 0x00, 0x00, 0x00, 0x06, 0x00, 0x08, 0x00, 0x07, 0x00, 0x06, 0x00, 0x00, 0x00, 0x00, 0x00, 0x00, 0x04};
const unsigned mnist_model_len = 7024;
